8f
bf
8e
29
ff
92
10
b1
65
2c
1d
10
34
35
1f
65
da
b6
19
cd
52
41
43
b3
a7
6f
c3
17
2a
14
5a
00
4b
69
27
d7
19
1a
6c
93
d2
9d
7a
3e
94
ad
86
7b
3e
2e
dd
df
4a
c4
9f
6e
77
70
9d
77
9b
63
de
80
ca
bc
9d
28
67
a3
44
c7
d1
55
ae
15
8b
85
4b
e0
8f
a9
24
5c
9c
63
58
1c
67
b0
cb
39
a6
c2
28
fa
4b
a8
9b
56
a0
83
5e
66
42
e4
67
b1
61
4a
8a
55
a8
49
8f
9c
61
c0
cc
68
5b
98
86
1d
6b
87
a1
97
cb
ac
97
41
a6
45
94
78
70
a1
e5
ce
c4
bb
cc
ad
dc
6e
bc
61
dc
f6
5a
4c
c2
a8
64
75
a0
54
88
85
c1
df
56
b4
d3
b2
8f
82
cf
64
cd
62
af
56
bb
8c
67
b9
94
bb
c3
9b
5d
9a
b5
70
99
62
dc
5d
f5
52
d6
c8
5d
8e
b4
a2
ae
5e
80
67
d7
43
80
67
7b
52
6a
a7
b0
88
69
d1
20
4f
d6
e6
a7
69
61
59
cc
54
b0
b0
b2
a4
5c
a3
49
bc
bd
b1
6d
6d
9a
71
a0
b5
d5
68
f0
ac
93
ce
00
8a
8c
72
5b
aa
b9
94
d2
57
bc
6d
b5
c0
ac
cd
50
48
9a
5f
88
ce
c6
49
cc
97
e1
5f
66
94
13
e1
78
64
6a
bc
80
42
ae
74
ca
bb
79
b5
ab
98
7e
4a
c4
d0
b5
c2
4d
cd
c6
51
80
a9
a7
b6
78
6f
90
7e
39
7e
d3
5d
81
56
ce
8c
78
7c
a0
b5
72
b1
b6
c3
ca
7d
7e
a0
97
5b
99
b5
56
70
b3
d3
9c
5b
a0
df
57
67
77
60
88
98
84
af
69
8e
ee
81
41
86
4f
5d
8d
5a
53
c1
92
81
5a
66
8d
65
bf
70
a3
7d
67
71
47
41
d8
e3
ad
af
af
3f
ef
a6
98
d2
6b
aa
8a
a8
45
8c
76
52
ad
a0
be
95
98
d3
5d
73
87
b8
9e
72
4d
4f
5c
91
d0
ac
92
5a
b3
8e
8f
c0
60
71
80
71
99
7c
ba
c5
bd
90
84
b5
66
b6
72
9b
78
8d
74
89
dc
a3
9f
9e
57
8a
78
91
90
a2
a1
5f
b1
b1
d3
9c
96
5c
81
b0
85
80
68
d0
6c
93
42
b1
68
98
7d
7f
85
b5
6c
60
5e
5e
b2
b9
aa
51
64
bb
3c
d1
91
67
74
af
bb
60
6d
57
a5
6a
88
5d
8c
5d
41
d5
c4
e0
66
a9
64
86
88
86
98
7a
82
a3
87
6c
ad
68
67
c8
61
ca
ce
a3
75
78
a3
d9
9a
d4
a5
da
6d
aa
ca
ac
76
7e
5c
92
89
c3
a2
a2
9c
91
7e
76
71
a4
44
4e
56
b2
84
46
52
a4
ba
cc
a7
cd
a2
5d
c1
77
7e
b8
7c
a6
5d
8c
54
46
58
73
d1
ab
68
5f
55
91
f0
57
b8
73
b1
8d
6d
d1
ad
8e
7d
97
3b
3d
93
8c
61
67
db
95
aa
bd
68
53
5f
b5
9d
94
39
b2
a3
9f
c0
87
8f
d0
ab
7a
c2
d0
7b
cb
c5
b1
bd
ba
d3
47
c2
81
8a
a7
43
a2
95
59
79
90
aa
80
86
e8
40
92
7d
b3
a9
89
5c
72
58
4d
a4
57
3d
c5
7d
57
d1
7f
af
9c
e4
7d
ba
df
d3
75
86
56
5b
9f
74
98
a3
9b
71
5a
80
8a
5e
a4
6f
70
cb
91
5e
b3
60
d6
60
5c
9b
5a
88
55
86
a6
4f
c2
7c
9b
b9
50
52
c1
a2
52
65
aa
c6
c2
71
bb
9d
99
82
d8
b1
bd
cc
95
53
73
81
92
a5
df
86
a9
cb
6c
8d
82
ef
b3
87
4d
58
ed
7c
eb
96
88
4c
6b
82
a9
64
7e
79
4d
c9
3f
a6
da
4c
54
d8
c4
e7
e3
b4
85
71
3e
60
92
92
95
6b
49
68
60
5c
85
47
da
53
d0
d3
e0
a5
48
5e
7c
a1
63
a8
76
a7
8b
b0
ff
b4
53
b0
c9
9d
87
d0
fa
52
c3
ce
c6
dd
56
bc
76
c4
92
c8
d6
6f
ab
6e
7f
6a
cc
95
49
af
78
8e
c2
be
68
87
48
8a
82
70
8d
90
73
ac
ba
c8
cf
ab
61
9e
28
59
61
55
ba
9a
7a
bf
83
84
56
b9
a5
83
bc
95
c2
7d
8b
65
6d
a8
c6
62
ee
91
94
c4
93
7c
58
92
c3
9c
87
b2
b6
5d
a6
a6
67
b8
6a
7b
6f
9d
5c
d6
84
7a
df
dd
d6
3d
c1
b3
a7
ce
c4
83
57
53
50
c2
b3
5d
ad
6b
72
36
c6
dc
3f
c1
59
a7
68
83
5d
a4
ac
8f
6d
98
76
4f
5b
b1
34
e5
da
35
70
59
78
b1
54
84
67
6c
f1
c2
d3
d4
b2
b2
d1
3a
b1
14
b8
c4
51
5d
81
b2
48
9d
6f
c8
c4
ae
83
6d
7e
38
8d
a5
97
88
88
37
c1
54
7b
68
6f
76
78
71
d0
5d
72
cd
e3
9c
cb
5a
6a
68
b8
68
bf
bd
7c
a4
ae
64
8b
8c
42
72
cf
8d
78
87
91
12
7c
9b
e3
17
70
51
27
82
b5
77
42
5a
5b
c1
bc
87
6b
b9
bd
a9
23
87
8f
7c
c6
73
47
ae
ae
bf
b3
87
56
b0
61
d0
cf
99
60
85
ac
c4
96
b5
67
35
5e
61
ac
6f
71
7f
79
86
d9
85
c7
b6
dd
60
bb
b6
74
79
4f
a9
8d
81
bd
b9
a4
8f
80
44
72
d0
50
43
df
b8
91
91
60
57
65
d9
86
57
a4
b8
97
72
72
b5
97
be
be
8e
2e
88
84
43
c7
98
b4
52
74
73
a1
4f
66
5c
65
e7
9a
78
cd
5a
b7
b4
9e
83
4f
81
bf
b3
5a
cc
91
a6
b6
57
84
4a
4b
65
a3
93
52
53
70
e2
4e
c2
b5
c3
b6
af
67
a2
66
7e
fc
4d
aa
5e
d2
61
67
9a
81
70
20
80
54
5a
5b
8a
6e
37
6c
bb
8e
59
5d
c2
66
bc
b4
7a
72
1e
a3
9c
6b
73
d7
31
e0
81
bb
a1
a2
cd
a6
5b
6c
65
60
c2
5e
ce
5d
73
31
cb
cf
c9
b5
55
d1
6d
a1
68
cb
b4
af
45
8f
4f
81
78
7b
8f
58
a6
65
db
2b
df
7f
88
83
a4
d5
57
65
40
58
fc
62
8e
7e
c1
59
c0
8f
8c
63
a5
bf
66
cd
6f
75
76
1f
49
86
3c
6c
43
c1
88
76
4a
9e
9a
4c
99
bb
c5
b1
73
d8
db
7c
61
5f
54
da
a1
81
a0
ba
65
60
70
ac
7d
5c
57
2a
80
c5
b2
77
5b
4e
d0
86
6c
94
6d
e0
c3
7b
86
45
39
70
8b
57
9b
a3
ae
d7
bd
c4
98
c4
b6
ad
4d
b9
63
a5
ae
2c
6e
9a
9b
76
b7
76
ad
71
5d
5e
9d
8a
96
74
a0
89
3d
c6
a6
65
7a
92
4f
71
31
7f
b3
7f
6b
7c
66
e0
cc
77
3b
53
6a
b2
86
4d
b8
a9
a6
ae
6e
58
1a
51
b7
cb
20
83
e3
a1
8a
7e
81
b3
1c
85
6e
57
55
78
79
50
a1
26
bc
74
32
ab
5b
bc
c2
50
b5
d5
5b
65
bf
d9
8b
a3
55
a3
51
a6
82
af
75
76
96
b8
59
ae
35
59
af
ac
83
c7
82
44
82
92
63
68
57
b2
29
b2
9a
cf
a1
88
89
46
85
19
a0
b7
7f
8b
d8
ac
8e
7e
92
35
5a
27
e7
76
a6
dc
9b
7f
9e
87
8d
3c
5b
9f
45
8a
92
bc
a5
a3
4f
cc
1c
75
8d
96
ac
78
b9
a5
96
45
af
bb
9e
a2
91
68
cd
da
9b
f2
4f
a6
a8
51
72
9b
74
72
8c
80
8e
97
d1
4a
c9
be
2f
9b
75
67
f7
53
99
c5
80
7e
3d
7b
47
87
cc
a6
8c
ca
80
75
38
75
c4
c6
a4
6f
e2
66
88
a7
3b
76
e4
63
47
cf
ac
b9
56
43
55
6c
bd
40
cc
74
7a
5f
23
cc
79
44
6a
a9
c7
af
c3
90
a8
a4
b9
b1
13
50
8a
e9
5f
5e
2b
26
5b
c9
70
a6
bd
97
68
85
d7
ab
9c
78
64
47
ae
af
4b
77
c7
78
83
83
6a
74
a6
67
b7
6f
dd
ae
9e
ad
ac
97
af
6f
9d
db
63
ce
41
83
a8
e9
25
33
a9
8f
76
77
7d
91
92
75
73
80
55
45
70
bb
c0
49
86
49
d8
45
c4
c5
6b
75
74
b0
b5
9d
ba
d4
98
5e
74
75
7b
dc
bb
58
ba
84
93
8f
cb
27
a9
8b
71
50
85
d4
65
a6
b5
a4
b1
3b
99
99
69
39
45
78
76
4b
55
6c
ad
6a
ff
4a
8b
6d
99
7f
39
b8
6e
cd
b7
a1
77
a8
76
50
d7
89
7b
90
93
75
8b
cc
70
7c
83
81
7b
77
4b
bf
5f
a2
86
c2
33
a7
65
50
bd
d5
71
90
66
9f
af
d8
45
be
b5
a1
5b
86
3e
a6
64
ab
7d
70
6f
c1
26
75
e1
cb
3f
5e
e4
3f
3f
53
8a
c3
51
a1
9c
be
d0
aa
8a
a3
55
b6
e5
c1
ce
5b
46
b2
71
b8
70
93
42
af
ae
93
42
af
53
59
51
b4
8e
a7
8d
a2
33
ab
93
cd
5b
b2
1a
58
bc
61
48
af
1c
65
96
43
74
d8
98
70
ca
3e
7d
79
b1
73
52
99
a8
88
c0
59
67
48
62
79
70
c6
7d
e2
0d
b4
54
90
a1
86
8f
cd
3d
5a
99
a4
d3
89
90
5c
f4
b0
a1
55
64
bd
9b
9f
6f
a4
70
72
bd
ce
a7
70
2a
85
59
40
a7
ba
a1
7e
4b
7f
51
59
b4
2e
ea
08
8a
b8
a6
4b
cc
a0
7e
ae
97
6b
68
85
6a
b4
7c
ab
b9
5d
9d
d0
56
73
64
93
79
68
52
98
73
c4
e9
95
45
6d
82
8b
d0
a6
82
98
c0
59
4d
7a
69
cf
6f
78
38
bf
5b
ba
64
e2
5c
b0
6d
c6
49
a8
ac
30
97
6c
8d
8f
5d
20
66
e7
7e
3d
8f
b7
c3
9c
91
75
89
b7
a0
9a
6b
d6
a3
32
c2
df
78
97
7e
dc
f2
d0
82
b8
4b
51
56
70
8e
80
4b
ae
6e
a0
82
72
98
ad
6b
cf
b8
53
99
91
54
5e
5c
56
7d
a8
9d
aa
b8
60
a4
8a
d4
8e
76
58
77
fb
78
7c
8f
c0
b1
c0
6a
ac
47
92
ae
94
59
7f
95
76
c7
b1
8f
cb
92
c2
8e
51
82
a6
74
8c
9c
b7
76
5e
82
70
bf
b1
d9
be
b5
86
b1
45
4d
ab
7e
2c
a6
ae
15
95
79
98
86
b7
93
36
8c
94
6c
7b
a6
ea
ba
9f
83
a6
68
9e
ba
a1
89
5e
83
79
a5
96
c9
96
aa
8c
d4
78
3a
6d
52
bc
7b
86
4d
b0
92
a8
a6
53
b2
4e
70
bd
0c
44
a0
85
ab
ce
33
82
ae
f0
73
b7
24
8b
11
93
32
c3
69
7a
a2
95
aa
a4
57
53
c6
84
6e
c6
3a
9e
ea
be
83
d9
a4
54
4c
66
00
a8
74
ab
c3
5a
d9
cd
94
da
4f
c9
df
fb
fe
69
88
7b
ad
9d
46
c4
71
68
95
64
ba
6b
8c
e5
97
46
56
c8
60
76
9b
ae
5b
4d
9c
90
3d
28
bd
5a
ed
99
08
58
7b
83
68
c9
cc
89
8d
6d
8d
65
8d
ad
b6
b6
35
4d
d5
a3
82
a3
9d
56
d6
dc
6c
ba
83
c3
da
50
68
ce
94
a2
dc
4d
c3
8f
f2
b2
d7
cf
70
83
c7
bb
57
86
a6
a1
63
8c
87
67
64
a6
ba
91
b6
83
c6
3f
49
d1
4a
8a
c7
b4
a2
74
26
55
51
e8
49
d0
a7
64
64
aa
a7
a9
99
52
b1
b0
b2
ad
6d
c7
b2
a6
b1
ae
bd
5e
ce
59
b9
c9
92
d3
a0
5e
71
89
a4
37
84
c3
7b
cc
49
c5
56
20
b4
a9
5b
70
4f
89
e2
18
3b
71
55
b7
52
c6
4a
62
51
9b
8d
5d
b9
70
83
47
4d
64
ac
ad
91
aa
9e
b3
7f
7a
90
80
b7
c9
8f
9a
8b
60
39
92
6e
81
d1
86
ac
81
cb
b4
d8
a3
5f
6e
49
69
39
8e
b6
60
a5
9d
40
b5
39
cf
a9
72
90
59
bf
4d
a0
71
5a
8b
56
5d
37
a7
94
57
96
a2
67
9c
a6
e1
bb
6a
7e
9f
74
4c
d9
99
40
9d
c7
dd
8e
83
37
9c
5a
93
f1
62
91
a2
4c
6a
9c
7f
d9
99
55
87
3f
9a
87
ab
45
28
54
17
9f
5b
45
b7
79
c6
71
6b
b4
2e
a2
95
95
6e
a3
db
5e
5d
cd
8f
db
97
b4
65
97
a6
9d
37
80
85
8a
a3
87
8f
98
81
93
55
c3
88
36
53
d7
b0
50
99
8f
79
61
4c
74
85
be
b9
7b
71
ae
60
b0
6d
23
bd
7a
5f
6a
32
9e
98
98
7e
9f
3e
74
3f
63
62
b0
61
b0
4c
b5
31
80
b9
8e
65
7b
91
80
8a
66
00
64
96
a9
6e
3b
9b
70
3f
54
72
a7
79
5a
61
d0
7e
8e
c8
55
b4
81
90
5b
24
ba
69
b5
72
aa
8f
8c
84
6e
af
53
65
d1
5f
64
c2
4e
98
67
77
a5
46
7c
69
6f
54
61
58
ab
34
8e
9d
5d
2c
6c
6d
b1
ad
d5
57
86
95
6f
99
76
74
88
b8
74
66
ad
48
55
6c
88
98
ab
77
68
56
5a
b9
a9
37
85
6b
c8
7e
54
5c
ab
ac
60
ab
66
73
ab
53
d0
c8
91
bd
67
4e
8d
59
70
78
41
7a
60
bc
a8
b1
a9
78
95
29
7e
a2
a7
35
be
62
66
95
6f
a7
ce
70
75
83
96
a3
a9
70
b6
7d
ab
57
76
3c
9c
94
9f
81
79
73
1e
72
bc
92
ab
c5
95
b8
50
ac
3e
95
6f
ac
b7
5b
ad
ae
67
55
6d
9b
8d
27
49
73
74
a3
a5
67
b8
cd
84
8f
95
94
aa
51
82
70
3f
9d
75
96
97
8c
82
70
b2
be
b2
af
91
6f
7d
6d
5f
44
82
85
ba
6d
8f
97
3a
6b
89
9d
63
66
be
8d
93
66
51
9d
8d
a9
84
7b
5b
b1
b3
55
a9
ba
70
37
63
cd
97
a8
41
62
bf
e4
71
74
60
70
63
be
a2
ad
a0
63
74
a0
a6
c0
5a
58
91
8e
90
70
4b
8a
99
84
76
87
a5
7a
62
76
96
cd
d8
a4
73
93
88
6b
63
81
25
b9
4e
89
4f
6c
90
81
96
6a
80
47
6f
3c
4e
69
60
97
88
8d
65
7b
b6
5d
89
a4
71
6e
7a
52
b0
71
6e
32
7e
90
38
a7
c3
97
91
61
98
5f
6b
6b
67
7f
a2
77
82
8f
75
94
76
6d
a8
b8
70
9c
65
b4
83
d0
5b
81
76
a5
99
76
73
88
6f
6d
85
9f
90
a6
3d
85
b1
4b
b6
a6
55
7d
7a
a2
a8
9c
6b
98
77
5f
a2
74
71
81
86
93
53
64
87
85
7c
7f
c1
63
6f
cb
59
8c
ac
7f
7d
89
90
aa
a1
64
a7
d7
98
72
40
b5
85
9d
b6
77
60
46
92
8c
bc
ac
2e
71
a1
6f
97
87
50
5c
b3
5e
a1
b1
70
48
a9
a6
61
76
98
6d
78
8c
93
39
ae
4a
8e
7c
69
51
66
b3
5d
d2
94
6e
8e
59
9f
64
4e
8c
6a
37
72
82
73
77
4c
55
88
b5
5a
77
c1
78
61
84
4d
86
81
45
ae
ad
a9
89
6f
68
ab
86
8a
8d
5f
c3
a0
cc
66
55
94
cc
88
61
98
bc
8d
52
d5
92
7d
15
9d
3b
6c
8c
a4
b4
b4
d0
70
b1
78
ae
67
7d
5c
52
62
4b
68
7a
5d
a4
3f
46
aa
84
77
9f
6a
93
71
8d
26
8a
76
93
81
9d
7e
a9
5b
89
a1
98
be
7a
50
83
9e
b2
b3
a2
72
75
57
93
c1
90
8c
aa
89
76
72
77
6b
ba
55
7d
6c
5b
8d
77
a1
a1
8c
74
8b
a8
b0
b2
49
97
41
ac
a3
ae
a1
74
c0
41
a4
a9
55
6b
7c
96
78
48
74
4e
60
5a
6c
73
4d
34
a6
bb
a6
61
80
9e
67
67
67
34
aa
8e
9e
62
3e
83
79
70
87
8a
c8
93
aa
49
84
b1
a9
8b
7a
63
9e
b7
4e
72
6d
b7
bc
8b
48
7a
8d
6f
8c
84
88
a9
aa
97
79
99
5f
84
69
b8
3e
4d
93
71
5a
6d
44
84
42
82
5d
72
67
9f
a1
46
60
49
41
79
84
ba
9b
8c
66
60
5b
8d
6c
58
a6
20
ac
9b
3c
85
cd
94
5b
63
49
bf
83
9a
62
62
76
bb
6b
b9
a7
bb
b4
a9
af
5e
af
b6
85
8c
4c
c4
4b
86
94
ae
6e
95
7b
4d
82
92
b4
6c
98
78
8e
4e
77
8a
83
4f
65
91
9c
bc
95
a9
d0
93
ad
97
71
82
4b
7b
8e
ad
82
54
7a
a3
b9
ad
a7
81
67
9f
7d
5a
aa
92
90
64
a8
ab
9a
6a
ac
85
6a
6d
53
a7
7f
d1
5c
7b
46
6e
7b
67
79
a8
6e
90
b9
8f
9d
52
ab
66
8b
5c
aa
8d
97
b7
7b
63
53
a0
a2
59
a6
70
a6
7d
68
87
99
42
88
33
5f
ad
86
7b
b7
93
6d
ad
74
a9
43
62
79
66
73
c3
57
97
65
84
6b
b4
91
5f
5c
96
40
39
43
c6
77
aa
a9
a7
96
a6
b0
77
53
8a
67
a1
21
53
a0
a2
b8
33
8a
80
8e
6f
53
91
a0
98
d8
93
85
4e
75
9b
37
ad
70
7e
79
52
a0
a6
8c
4f
ab
92
ac
79
62
77
85
92
b0
82
37
54
99
3b
b0
c3
a8
ad
97
8b
4f
9e
6b
54
aa
ae
b8
c4
83
40
69
2c
9e
78
45
9e
77
72
53
60
b4
5a
81
6b
8e
a8
48
65
71
74
a8
7f
79
4d
43
ad
61
a4
76
be
8c
a0
40
60
4f
3b
6e
bb
7f
96
72
b0
bc
96
66
77
9a
87
84
4e
9c
ac
6e
cb
84
9d
92
ab
68
7f
75
73
6e
73
8b
71
4c
46
2d
a6
a1
af
81
50
8d
88
63
9b
5f
9c
36
af
8c
7b
af
7d
a7
6d
b5
a1
9e
61
7b
79
a9
ce
a9
50
b6
bd
87
92
54
b9
ae
3d
a2
b2
ba
8a
8e
75
87
99
56
98
87
6e
2c
90
62
7a
b5
93
67
c4
8d
68
9a
a5
92
94
66
79
8c
c4
6a
82
4a
5f
92
77
ae
a4
4e
4a
cd
51
b4
45
8e
82
9c
71
71
67
9c
74
57
89
6d
a2
78
5f
91
49
87
5b
7e
a8
70
a3
c6
8c
85
5e
49
6a
88
a4
7a
64
90
8b
68
99
7d
64
59
87
57
78
94
92
4f
86
97
73
60
7f
56
80
c2
bd
58
7a
8d
71
9c
72
87
99
3d
1e
61
6d
56
af
5b
b2
b9
c2
b5
b1
91
60
8f
9d
66
4d
69
8f
94
9e
8b
b3
8b
5e
8b
9b
e0
72
ac
7c
7a
5a
a6
8b
9a
b0
c2
72
91
72
92
6a
b7
74
75
66
79
6f
98
c4
9f
a1
62
91
6b
95
a1
4d
bd
b5
ff
5f
7e
84
6a
6d
60
99
36
89
62
70
8f
5c
94
6d
6e
57
90
4d
88
87
a1
38
2f
30
8b
d2
e4
47
55
4f
80
7b
ac
b4
6e
79
73
28
80
ae
52
a9
76
97
6d
56
bf
4e
9b
66
a4
6d
b6
7f
76
bf
40
76
59
72
66
2d
ed
57
a4
4f
9a
3a
18
96
a2
ad
8f
b1
89
92
b0
80
ac
7f
9b
3b
50
40
8c
61
a7
7e
45
ca
d0
45
88
ae
e3
df
9d
64
70
7b
8a
7e
7b
9e
cf
90
a4
7e
78
76
7e
45
49
97
9b
94
8a
62
b8
74
67
79
6e
5d
44
52
fa
5f
78
94
6d
7a
2c
ba
9e
78
71
9f
90
dd
94
b2
54
72
4f
65
71
6e
a0
94
8f
81
49
76
a8
82
60
6d
69
b8
8f
84
52
7e
6f
c7
82
a3
94
b8
ae
8e
67
a1
8b
4b
5e
59
96
8c
98
6a
91
a2
ad
9c
85
96
83
73
bb
9e
6d
48
49
8a
c7
8c
83
8f
ba
c8
b6
8f
8c
5e
8b
6f
4a
47
90
8e
53
60
68
84
7d
74
9e
a0
7a
ac
84
8a
ac
83
82
b4
6a
68
ad
66
ab
b0
68
7e
6f
b1
5f
29
77
9b
84
80
5f
5d
4c
66
b1
59
92
59
3f
b6
d3
65
47
4c
85
45
70
8c
a0
5c
6b
80
a9
9d
8c
6d
c5
56
8a
62
61
81
69
9a
3a
78
a8
c6
be
44
d4
c2
73
d4
81
78
75
93
70
68
8c
48
76
93
78
56
85
6d
a1
a4
54
64
7e
ab
b7
9c
d8
af
a7
85
50
5e
7e
37
85
64
75
1e
73
90
d5
bb
2e
bb
75
3d
1b
27
5b
6e
ff
2d
91
ba
73
f1
9b
a3
1e
3c
2b
17
de
e9
2a
7a
1e
5d
8b
19
89
d9
6d
a9
ea
2e
d0
7e
be
d8
17
69
80
d1
49
20
d2
47
a5
34
c6
60
3f
00
d1
5f
26
22
7f
bd
68
1f
cb
93
59
72
25
35
32
a9
f4
e3
3e
6d
9a
f1
a2
99
ca
39
59
e3
d8
cf
64
83
60
ce
9c
dd
19
58
57
de
4a
73
3a
94
29
f2
a6
63
c1
ce
c9
51
d5
f4
dd
47
a2
95
5d
a8
78
88
ba
86
95
b2
df
97
18
a8
d3
00
3d
57
3d
ac
35
c5
33
e3
50
9f
2c
0e
dd
5d
bc
78
41
16
2a
b8
96
a1
d8
5a
a2
a3
2b
81
52
36
71
dc
4d
7f
75
01
06
1b
49
7b
a2
ff
d7
d0
66
9d
1f
cd
16
8d
5e
ad
83
6e
61
56
13
2e
4c
b4
49
6e
6e
dc
a1
4f
d8
52
a8
56
e9
81
19
50
3c
bb