9d
37
80
85
8a
a3
87
8f
98
81
93
55
c3
88
36
53
d7
b0
50
99
8f
79
61
4c
74
85
be
b9
7b
71
ae
60
b0
6d
23
bd
7a
5f
6a
32
9e
98
98
7e
9f
3e
74
3f
63
62
b0
61
b0
4c
b5
31
80
b9
8e
65
7b
91
80
8a
66
00
64
96
a9
6e
3b
9b
70
3f
54
72
a7
79
5a
61
d0
7e
8e
c8
55
b4
81
90
5b
24
ba
69
b5
72
aa
8f
8c
84
6e
af
53
65
d1
5f
64
c2
4e
98
67
77
a5
46
7c
69
6f
54
61
58
ab
34
8e
9d
5d
2c
6c
6d
b1
ad
d5
57
86
95
6f
99
76
74
88
b8
74
66
ad
48
55
6c
88
98
ab
77
68
56
5a
b9
a9
37
85
6b
c8
7e
54
5c
ab
ac
60
ab
66
73
ab
53
d0
c8
91
bd
67
4e
8d
59
70
78
41
7a
60
bc
a8
b1
a9
78
95
29
7e
a2
a7
35
be
62
66
95
6f
a7
ce
70
75
83
96
a3
a9
70
b6
7d
ab
57
76
3c
9c
94
9f
81
79
73
1e
72
bc
92
ab
c5
95
b8
50
ac
3e
95
6f
ac
b7
5b
ad
ae
67
55
6d
9b
8d
27
49
73
74
a3
a5
67
b8
cd
84
8f
95
94
aa
51
82
70
3f
9d
75
96
97
8c
82
70
b2
be
b2
af
91
6f
7d
6d
5f
44
82
85
ba
6d
8f
97
3a
6b
89
9d
63
66
be
8d
93
66
51
9d
8d
a9
84
7b
5b
b1
b3
55
a9
ba
70
37
63
cd
97
a8
41
62
bf
e4
71
74
60
70
63
be
a2
ad
a0
63
74
a0
a6
c0
5a
58
91
8e
90
70
4b
8a
99
84
76
87
a5
7a
62
76
96
cd
d8
a4
73
93
88
6b
63
81
25
b9
4e
89
4f
6c
90
81
96
6a
80
47
6f
3c
4e
69
60
97
88
8d
65
7b
b6
5d
89
a4
71
6e
7a
52
b0
71
6e
32
7e
90
38
a7
c3
97
91
61
98
5f
6b
6b
67
7f
a2
77
82
8f
75
94
76
6d
a8
b8
70
9c
65
b4
83
d0
5b
81
76
a5
99
76
73
88
6f
6d
85
9f
90
a6
3d
85
b1
4b
b6
a6
55
7d
7a
a2
a8
9c
6b
98
77
5f
a2
74
71
81
86
93
53
64
87
85
7c
7f
c1
63
6f
cb
59
8c
ac
7f
7d
89
90
aa
a1
64
a7
d7
98
72
40
b5
85
9d
b6
77
60
46
92
8c
bc
ac
2e
71
a1
6f
97
87
50
5c
b3
5e
a1
b1
70
48
a9
a6
61
76
98
6d
78
8c
93
39
ae
4a
8e
7c
69
51
66
b3
5d
d2
94
6e
8e
59
9f
64
4e
8c
6a
37
72
82
73
77
4c
55
88
b5
5a
77
c1
78
61
84
4d
86
81
45
ae
ad
a9
89
6f
68
ab
86
8a
8d
5f
c3
a0
cc
66
55
94
cc
88
61
98
bc
8d
52
d5
92
7d
15
9d
3b
6c
8c
a4
b4
b4
d0
70
b1
78
ae
67
7d
5c
52
62
4b
68
7a
5d
a4
3f
46
aa
84
77
9f
6a
93
71
8d
26
8a
76
93
81
9d
7e
a9
5b
89
a1
98
be
7a
50
83
9e
b2
b3
a2
72
75
57
93
c1
90
8c
aa
89
76
72
77
6b
ba
55
7d
6c
5b
8d
77
a1
a1
8c
74
8b
a8
b0
b2
49
97
41
ac
a3
ae
a1
74
c0
41
a4
a9
55
6b
7c
96
78
48
74
4e
60
5a
6c
73
4d
34
a6
bb
a6
61
80
9e
67
67
67
34
aa
8e
9e
62
3e
83
79
70
87
8a
c8
93
aa
49
84
b1
a9
8b
7a
63
9e
b7
4e
72
6d
b7
bc
8b
48
7a
8d
6f
8c
84
88
a9
aa
97
79
99
5f
84
69
b8
3e
4d
93
71
5a
6d
44
84
42
82
5d
72
67
9f
a1
46
60
49
41
79
84
ba
9b
8c
66
60
5b
8d
6c
58
a6
20
ac
9b
3c
85
cd
94
5b
63
49
bf
83
9a
62
62
76
bb
6b
b9
a7
bb
b4
a9
af
5e
af
b6
85
8c
4c
c4
4b
86
94
ae
6e
95
7b
4d
82
92
b4
6c
98
78
8e
4e
77
8a
83
4f
65
91
9c
bc
95
a9
d0
93
ad
97
71
82
4b
7b
8e
ad
82
54
7a
a3
b9
ad
a7
81
67
9f
7d
5a
aa
92
90
64
a8
ab
9a
6a
ac
85
6a
6d
53
a7
7f
d1
5c
7b
46
6e
7b
67
79
a8
6e
90
b9
8f
9d
52
ab
66
8b
5c
aa
8d
97
b7
7b
63
53
a0
a2
59
a6
70
a6
7d
68
87
99
42
88
33
5f
ad
86
7b
b7
93
6d
ad
74
a9
43
62
79
66
73
c3
57
97
65
84
6b
b4
91
5f
5c
96
40
39
43
c6
77
aa
a9
a7
96
a6
b0
77
53
8a
67
a1
21
53
a0
a2
b8
33
8a
80
8e
6f
53
91
a0
98
d8
93
85
4e
75
9b
37
ad
70
7e
79
52
a0
a6
8c
4f
ab
92
ac
79
62
77
85
92
b0
82
37
54
99
3b
b0
c3
a8
ad
97
8b
4f
9e
6b
54
aa
ae
b8
c4
83
40
69
2c
9e
78
45
9e
77
72
53
60
b4
5a
81
6b
8e
a8
48
65
71
74
a8
7f
79
4d
43
ad
61
a4
76
be
8c
a0
40
60
4f
3b
6e
bb
7f
96
72
b0
bc
96
66
77
9a
87
84
4e
9c
ac
6e
cb
84
9d
92
ab
68
7f
75
73
6e
73
8b
71
4c
46
2d
a6
a1
af
81
50
8d
88
63
9b
5f
9c
36
af
8c
7b
af
7d
a7
6d
b5
a1
9e
61
7b
79
a9
ce
a9
50
b6
bd
87
92
54
b9
ae
3d
a2
b2
ba
8a
8e
75
87
99
56
98
87
6e
2c
90
62
7a
b5
93
67
c4
8d
68
9a
a5
92
94
66
79
8c
c4
6a
82
4a
5f
92
77
ae
a4
4e
4a
cd
51
b4
45
8e
82
9c
71
71
67
9c
74
57
89
6d
a2
78
5f
91
49
87
5b
7e
a8
70
a3
c6
8c
85
5e
49
6a
88
a4
7a
64
90
8b
68
99
7d
64
59
87
57
78
94
92
4f
86
97
73
60
7f
56
80
c2
bd
58
7a
8d
71
9c
72
87
99
3d
1e
61
6d
56
af
5b
b2
b9
c2
b5
b1
91
60
8f
9d
66
4d
69
8f
94
9e
8b
b3
8b
5e
8b
9b
e0
72
ac
7c
7a
5a
a6
8b
9a
b0
c2
72
91
72
92
6a
b7
74
75
66
79
6f
98
c4
9f
a1
62
91
6b
95
a1
4d
bd
b5
ff
5f
7e
84
6a
6d
60
99
36
89
62
70
8f
5c
94
6d
6e
57
90
4d
88
87
a1
38
2f
30
8b
d2
e4
47
55
4f
80
7b
ac
b4
6e
79
73
28
80
ae
52
a9
76
97
6d
56
bf
4e
9b
66
a4
6d
b6
7f
76
bf
40
76
59
72
66
2d
ed
57
a4
4f
9a
3a
18
96
a2
ad
8f
b1
89
92
b0
80
ac
7f
9b
3b
50
40
8c
61
a7
7e
45
ca
d0
45
88
ae
e3
df
9d
64
70
7b
8a
7e
7b
9e
cf
90
a4
7e
78
76
7e
45
49
97
9b
94
8a
62
b8
74
67
79
6e
5d
44
52
fa
5f
78
94
6d
7a
2c
ba
9e
78
71
9f
90
dd
94
b2
54
72
4f
65
71
6e
a0
94
8f
81
49
76
a8
82
60
6d
69
b8
8f
84
52
7e
6f
c7
82
a3
94
b8
ae
8e
67
a1
8b
4b
5e
59
96
8c
98
6a
91
a2
ad
9c
85
96
83
73
bb
9e
6d
48
49
8a
c7
8c
83
8f
ba
c8
b6
8f
8c
5e
8b
6f
4a
47
90
8e
53
60
68
84
7d
74
9e
a0
7a
ac
84
8a
ac
83
82
b4
6a
68
ad
66
ab
b0
68
7e
6f
b1
5f
29
77
9b
84
80
5f
5d
4c
66
b1
59
92
59
3f
b6
d3
65
47
4c
85
45
70
8c
a0
5c
6b
80
a9
9d
8c
6d
c5
56
8a
62
61
81
69
9a
3a
78
a8
c6
be
44
d4
c2
73
d4
81
78
75
93
70
68
8c
48
76
93
78
56
85
6d
a1
a4
54
64
7e
ab
b7
9c
d8
af
a7
85
50
5e
7e
37