ce
c4
83
57
53
50
c2
b3
5d
ad
6b
72
36
c6
dc
3f
c1
59
a7
68
83
5d
a4
ac
8f
6d
98
76
4f
5b
b1
34
e5
da
35
70
59
78
b1
54
84
67
6c
f1
c2
d3
d4
b2
b2
d1
3a
b1
14
b8
c4
51
5d
81
b2
48
9d
6f
c8
c4
ae
83
6d
7e
38
8d
a5
97
88
88
37
c1
54
7b
68
6f
76
78
71
d0
5d
72
cd
e3
9c
cb
5a
6a
68
b8
68
bf
bd
7c
a4
ae
64
8b
8c
42
72
cf
8d
78
87
91
12
7c
9b
e3
17
70
51
27
82
b5
77
42
5a
5b
c1
bc
87
6b
b9
bd
a9
23
87
8f
7c
c6
73
47
ae
ae
bf
b3
87
56
b0
61
d0
cf
99
60
85
ac
c4
96
b5
67
35
5e
61
ac
6f
71
7f
79
86
d9
85
c7
b6
dd
60
bb
b6
74
79
4f
a9
8d
81
bd
b9
a4
8f
80
44
72
d0
50
43
df
b8
91
91
60
57
65
d9
86
57
a4
b8
97
72
72
b5
97
be
be
8e
2e
88
84
43
c7
98
b4
52
74
73
a1
4f
66
5c
65
e7
9a
78
cd
5a
b7
b4
9e
83
4f
81
bf
b3
5a
cc
91
a6
b6
57
84
4a
4b
65
a3
93
52
53
70
e2
4e
c2
b5
c3
b6
af
67
a2
66
7e
fc
4d
aa
5e
d2
61
67
9a
81
70
20
80
54
5a
5b
8a
6e
37
6c
bb
8e
59
5d
c2
66
bc
b4
7a
72
1e
a3
9c
6b
73
d7
31
e0
81
bb
a1
a2
cd
a6
5b
6c
65
60
c2
5e
ce
5d
73
31
cb
cf
c9
b5
55
d1
6d
a1
68
cb
b4
af
45
8f
4f
81
78
7b
8f
58
a6
65
db
2b
df
7f
88
83
a4
d5
57
65
40
58
fc
62
8e
7e
c1
59
c0
8f
8c
63
a5
bf
66
cd
6f
75
76
1f
49
86
3c
6c
43
c1
88
76
4a
9e
9a
4c
99
bb
c5
b1
73
d8
db
7c
61
5f
54
da
a1
81
a0
ba
65
60
70
ac
7d
5c
57
2a
80
c5
b2
77
5b
4e
d0
86
6c
94
6d
e0
c3
7b
86
45
39
70
8b
57
9b
a3
ae
d7
bd
c4
98
c4
b6
ad
4d
b9
63
a5
ae
2c
6e
9a
9b
76
b7
76
ad
71
5d
5e
9d
8a
96
74
a0
89
3d
c6
a6
65
7a
92
4f
71
31
7f
b3
7f
6b
7c
66
e0
cc
77
3b
53
6a
b2
86
4d
b8
a9
a6
ae
6e
58
1a
51
b7
cb
20
83
e3
a1
8a
7e
81
b3
1c
85
6e
57
55
78
79
50
a1
26
bc
74
32
ab
5b
bc
c2
50
b5
d5
5b
65
bf
d9
8b
a3
55
a3
51
a6
82
af
75
76
96
b8
59
ae
35
59
af
ac
83
c7
82
44
82
92
63
68
57
b2
29
b2
9a
cf
a1
88
89
46
85
19
a0
b7
7f
8b
d8
ac
8e
7e
92
35
5a
27
e7
76
a6
dc
9b
7f
9e
87
8d
3c
5b
9f
45
8a
92
bc
a5
a3
4f
cc
1c
75
8d
96
ac
78
b9
a5
96
45
af
bb
9e
a2
91
68
cd
da
9b
f2
4f
a6
a8
51
72
9b
74
72
8c
80
8e
97
d1
4a
c9
be
2f
9b
75
67
f7
53
99
c5
80
7e
3d
7b
47
87
cc
a6
8c
ca
80
75
38
75
c4
c6
a4
6f
e2
66
88
a7
3b
76
e4
63
47
cf
ac
b9
56
43
55
6c
bd
40
cc
74
7a
5f
23
cc
79
44
6a
a9
c7
af
c3
90
a8
a4
b9
b1
13
50
8a
e9
5f
5e
2b
26
5b
c9
70
a6
bd
97
68
85
d7
ab
9c
78
64
47
ae
af
4b
77
c7
78
83
83
6a
74
a6
67
b7
6f
dd
ae
9e
ad
ac
97
af
6f
9d
db
63
ce
41
83
a8
e9
25
33
a9
8f
76
77
7d
91
92
75
73
80
55
45
70
bb
c0
49
86
49
d8
45
c4
c5
6b
75
74
b0
b5
9d
ba
d4
98
5e
74
75
7b
dc
bb
58
ba
84
93
8f
cb
27
a9
8b
71
50
85
d4
65
a6
b5
a4
b1
3b
99
99
69
39
45
78
76
4b
55
6c
ad
6a
ff
4a
8b
6d
99
7f
39
b8
6e
cd
b7
a1
77
a8
76
50
d7
89
7b
90
93
75
8b
cc
70
7c
83
81
7b
77
4b
bf
5f
a2
86
c2
33
a7
65
50
bd
d5
71
90
66
9f
af
d8
45
be
b5
a1
5b
86
3e
a6
64
ab
7d
70
6f
c1
26
75
e1
cb
3f
5e
e4
3f
3f
53
8a
c3
51
a1
9c
be
d0
aa
8a
a3
55
b6
e5
c1
ce
5b
46
b2
71
b8
70
93
42
af
ae
93
42
af
53
59
51
b4
8e
a7
8d
a2
33
ab
93
cd
5b
b2
1a
58
bc
61
48
af
1c
65
96
43
74
d8
98
70
ca
3e
7d
79
b1
73
52
99
a8
88
c0
59
67
48
62
79
70
c6
7d
e2
0d
b4
54
90
a1
86
8f
cd
3d
5a
99
a4
d3
89
90
5c
f4
b0
a1
55
64
bd
9b
9f
6f
a4
70
72
bd
ce
a7
70
2a
85
59
40
a7
ba
a1
7e
4b
7f
51
59
b4
2e
ea
08
8a
b8
a6
4b
cc
a0
7e
ae
97
6b
68
85
6a
b4
7c
ab
b9
5d
9d
d0
56
73
64
93
79
68
52
98
73
c4
e9
95
45
6d
82
8b
d0
a6
82
98
c0
59
4d
7a
69
cf
6f
78
38
bf
5b
ba
64
e2
5c
b0
6d
c6
49
a8
ac
30
97
6c
8d
8f
5d
20
66
e7
7e
3d
8f
b7
c3
9c
91
75
89
b7
a0
9a
6b
d6
a3
32
c2
df
78
97
7e
dc
f2
d0
82
b8
4b
51
56
70
8e
80
4b
ae
6e
a0
82
72
98
ad
6b
cf
b8
53
99
91
54
5e
5c
56
7d
a8
9d
aa
b8
60
a4
8a
d4
8e
76
58
77
fb
78
7c
8f
c0
b1
c0
6a
ac
47
92
ae
94
59
7f
95
76
c7
b1
8f
cb
92
c2
8e
51
82
a6
74
8c
9c
b7
76
5e
82
70
bf
b1
d9
be
b5
86
b1
45
4d
ab
7e
2c
a6
ae
15
95
79
98
86
b7
93
36
8c
94
6c
7b
a6
ea
ba
9f
83
a6
68
9e
ba
a1
89
5e
83
79
a5
96
c9
96
aa
8c
d4
78
3a
6d
52
bc
7b
86
4d
b0
92
a8
a6
53
b2
4e
70
bd
0c
44
a0
85
ab
ce
33
82
ae
f0
73
b7
24
8b
11
93
32
c3
69
7a
a2
95
aa
a4
57
53
c6
84
6e
c6
3a
9e
ea
be
83
d9
a4
54
4c
66
00
a8
74
ab
c3
5a
d9
cd
94
da
4f
c9
df
fb
fe
69
88
7b
ad
9d
46
c4
71
68
95
64
ba
6b
8c
e5
97
46
56
c8
60
76
9b
ae
5b
4d
9c
90
3d
28
bd
5a
ed
99
08
58
7b
83
68
c9
cc
89
8d
6d
8d
65
8d
ad
b6
b6
35
4d
d5
a3
82
a3
9d
56
d6
dc
6c
ba
83
c3
da
50
68
ce
94
a2
dc
4d
c3
8f
f2
b2
d7
cf
70
83
c7
bb
57
86
a6
a1
63
8c
87
67
64
a6
ba
91
b6
83
c6
3f
49
d1
4a
8a
c7
b4
a2
74
26
55
51
e8
49
d0
a7
64
64
aa
a7
a9
99
52
b1
b0
b2
ad
6d
c7
b2
a6
b1
ae
bd
5e
ce
59
b9
c9
92
d3
a0
5e
71
89
a4
37
84
c3
7b
cc
49
c5
56
20
b4
a9
5b
70
4f
89
e2
18
3b
71
55
b7
52
c6
4a
62
51
9b
8d
5d
b9
70
83
47
4d
64
ac
ad
91
aa
9e
b3
7f
7a
90
80
b7
c9
8f
9a
8b
60
39
92
6e
81
d1
86
ac
81
cb
b4
d8
a3
5f
6e
49
69
39
8e
b6
60
a5
9d
40
b5
39
cf
a9
72
90
59
bf
4d
a0
71
5a
8b
56
5d
37
a7
94
57
96
a2
67
9c
a6
e1
bb
6a
7e
9f
74
4c
d9
99
40
9d
c7
dd
8e
83
37
9c
5a
93
f1
62
91
a2
4c
6a
9c
7f
d9
99
55
87
3f
9a
87
ab
45
28
54
17
9f
5b
45
b7
79
c6
71
6b
b4
2e
a2
95
95
6e
a3
db
5e
5d
cd
8f
db
97
b4
65
97
a6