a0
83
5e
66
42
e4
67
b1
61
4a
8a
55
a8
49
8f
9c
61
c0
cc
68
5b
98
86
1d
6b
87
a1
97
cb
ac
97
41
a6
45
94
78
70
a1
e5
ce
c4
bb
cc
ad
dc
6e
bc
61
dc
f6
5a
4c
c2
a8
64
75
a0
54
88
85
c1
df
56
b4
d3
b2
8f
82
cf
64
cd
62
af
56
bb
8c
67
b9
94
bb
c3
9b
5d
9a
b5
70
99
62
dc
5d
f5
52
d6
c8
5d
8e
b4
a2
ae
5e
80
67
d7
43
80
67
7b
52
6a
a7
b0
88
69
d1
20
4f
d6
e6
a7
69
61
59
cc
54
b0
b0
b2
a4
5c
a3
49
bc
bd
b1
6d
6d
9a
71
a0
b5
d5
68
f0
ac
93
ce
00
8a
8c
72
5b
aa
b9
94
d2
57
bc
6d
b5
c0
ac
cd
50
48
9a
5f
88
ce
c6
49
cc
97
e1
5f
66
94
13
e1
78
64
6a
bc
80
42
ae
74
ca
bb
79
b5
ab
98
7e
4a
c4
d0
b5
c2
4d
cd
c6
51
80
a9
a7
b6
78
6f
90
7e
39
7e
d3
5d
81
56
ce
8c
78
7c
a0
b5
72
b1
b6
c3
ca
7d
7e
a0
97
5b
99
b5
56
70
b3
d3
9c
5b
a0
df
57
67
77
60
88
98
84
af
69
8e
ee
81
41
86
4f
5d
8d
5a
53
c1
92
81
5a
66
8d
65
bf
70
a3
7d
67
71
47
41
d8
e3
ad
af
af
3f
ef
a6
98
d2
6b
aa
8a
a8
45
8c
76
52
ad
a0
be
95
98
d3
5d
73
87
b8
9e
72
4d
4f
5c
91
d0
ac
92
5a
b3
8e
8f
c0
60
71
80
71
99
7c
ba
c5
bd
90
84
b5
66
b6
72
9b
78
8d
74
89
dc
a3
9f
9e
57
8a
78
91
90
a2
a1
5f
b1
b1
d3
9c
96
5c
81
b0
85
80
68
d0
6c
93
42
b1
68
98
7d
7f
85
b5
6c
60
5e
5e
b2
b9
aa
51
64
bb
3c
d1
91
67
74
af
bb
60
6d
57
a5
6a
88
5d
8c
5d
41
d5
c4
e0
66
a9
64
86
88
86
98
7a
82
a3
87
6c
ad
68
67
c8
61
ca
ce
a3
75
78
a3
d9
9a
d4
a5
da
6d
aa
ca
ac
76
7e
5c
92
89
c3
a2
a2
9c
91
7e
76
71
a4
44
4e
56
b2
84
46
52
a4
ba
cc
a7
cd
a2
5d
c1
77
7e
b8
7c
a6
5d
8c
54
46
58
73
d1
ab
68
5f
55
91
f0
57
b8
73
b1
8d
6d
d1
ad
8e
7d
97
3b
3d
93
8c
61
67
db
95
aa
bd
68
53
5f
b5
9d
94
39
b2
a3
9f
c0
87
8f
d0
ab
7a
c2
d0
7b
cb
c5
b1
bd
ba
d3
47
c2
81
8a
a7
43
a2
95
59
79
90
aa
80
86
e8
40
92
7d
b3
a9
89
5c
72
58
4d
a4
57
3d
c5
7d
57
d1
7f
af
9c
e4
7d
ba
df
d3
75
86
56
5b
9f
74
98
a3
9b
71
5a
80
8a
5e
a4
6f
70
cb
91
5e
b3
60
d6
60
5c
9b
5a
88
55
86
a6
4f
c2
7c
9b
b9
50
52
c1
a2
52
65
aa
c6
c2
71
bb
9d
99
82
d8
b1
bd
cc
95
53
73
81
92
a5
df
86
a9
cb
6c
8d
82
ef
b3
87
4d
58
ed
7c
eb
96
88
4c
6b
82
a9
64
7e
79
4d
c9
3f
a6
da
4c
54
d8
c4
e7
e3
b4
85
71
3e
60
92
92
95
6b
49
68
60
5c
85
47
da
53
d0
d3
e0
a5
48
5e
7c
a1
63
a8
76
a7
8b
b0
ff
b4
53
b0
c9
9d
87
d0
fa
52
c3
ce
c6
dd
56
bc
76
c4
92
c8
d6
6f
ab
6e
7f
6a
cc
95
49
af
78
8e
c2
be
68
87
48
8a
82
70
8d
90
73
ac
ba
c8
cf
ab
61
9e
28
59
61
55
ba
9a
7a
bf
83
84
56
b9
a5
83
bc
95
c2
7d
8b
65
6d
a8
c6
62
ee
91
94
c4
93
7c
58
92
c3
9c
87
b2
b6
5d
a6
a6
67
b8
6a
7b
6f
9d
5c
d6
84
7a
df
dd
d6
3d
c1
b3
a7