85
64
75
1e
73
90
d5
bb
2e
bb
75
3d
1b
27
5b
6e
ff
2d
91
ba
73
f1
9b
a3
1e
3c
2b
17
de
e9
2a
7a
1e
5d
8b
19
89
d9
6d
a9
ea
2e
d0
7e
be
d8
17
69
80
d1
49
20
d2
47
a5
34
c6
60
3f
00
d1
5f
26
22
7f
bd
68
1f
cb
93
59
72
25
35
32
a9
f4
e3
3e
6d
9a
f1
a2
99
ca
39
59
e3
d8
cf
64
83
60
ce
9c
dd
19
58
57
de
4a
73
3a
94
29
f2
a6
63
c1
ce
c9
51
d5
f4
dd
47
a2
95
5d
a8
78
88
ba
86
95
b2
df
97